00111111
11100000
00011111
11100110
10010001
00000100
01111111
00101001
11111001
00001101
00110010
00101010
11001001
01010000
01111111
11100111
01000101
10111011
11101110
00000010
11100111
00110000
01111111
11101010
00000100
11100000
00010100
10101111
11010011
11000110
01010100
01111101
00110110
01111111
00110101
11001100
00110011
11111011
01010101
00110001
10000001
00101000
11100100
11110000
00101110
11101111
00000111
00000011
01111111
10111111
00010110
11111010
11110110
00000111
11110000
11101111
01010111
01001101
00011000
01011111
10111011
01111111
11001101
00110100
11101000
01111111
11110101
11100100
10110111
11011000
00110100
00100011
