memory_initialization_radix=10;
memory_initialization_vector=
63,
-32,
31,
-26,
-111,
4,
127,
41,
-7,
13,
50,
42,
-55,
80,
127,
-25,
69,
-69,
-18,
2,
-25,
48,
127,
-22,
4,
-32,
20,
-81,
-45,
-58,
84,
125,
54,
127,
53,
-52,
51,
-5,
85,
49,
-127,
40,
-28,
-16,
46,
-17,
7,
3,
127,
-65,
22,
-6,
-10,
7,
-16,
-17,
87,
77,
24,
95,
-69,
127,
-51,
52,
-24,
127,
-11,
-28,
-73,
-40,
52,
35;
