memory_initialization_radix=16;
memory_initialization_vector=
3F,
E0,
1F,
E6,
91,
04,
7F,
29,
F9,
0D,
32,
2A,
C9,
50,
7F,
E7,
45,
BB,
EE,
02,
E7,
30,
7F,
EA,
04,
E0,
14,
AF,
D3,
C6,
54,
7D,
36,
7F,
35,
CC,
33,
FB,
55,
31,
81,
28,
E4,
F0,
2E,
EF,
07,
03,
7F,
BF,
16,
FA,
F6,
07,
F0,
EF,
57,
4D,
18,
5F,
BB,
7F,
CD,
34,
E8,
7F,
F5,
E4,
B7,
D8,
34,
23;
